00
2f
00
00
b6
00
54
00
2f
00
00
ce
00
93
00
4b
b2
00
00
31
00
00
cf
00
00
00
40
00
74
00
00
00
00
00
00
00
00
ce
00
00
00
00
00
00
32
00
00
00
54
00
00
00
00
00
00
00
00
cd
00
00
00
00
4d
00
00
00
37
00
00
00
00
00
32
b1
00
00
00
00
00
c8
00
00
bc
00
00
00
00
00
00
00
c8
00
00
b5
00
00
c8
00
2f
00
3a
00
00
00
00
00
c6
48
00
00
00
00
33
cf
bb
00
00
00
00
00
00
41
25
00
00
c9
00
00
