00
00
00
00
ff
00
00
00
42
00
00
7b
01
00
00
00
00
00
00
00
00
00
00
00
00
ff
00
00
00
c7
00
01
8b
00
00
00
00
00
00
ff
00
00
3b
f2
d4
45
c0
f0
ad
00
00
00
00
00
00
00
00
42
00
00
7c
01
00
00
00
00
00
00
00
00
00
00
00
00
01
00
00
bf
06
f8
f4
6e
01
ff
00
00
00
00
02
00
00
02
14
ac
0a
e6
a9
f9
00
00
00
00
01
00
00
c7
ff
01
ff
79
ff
02
01
fc
3e
02
82
fe
01
00
00
00
00
00
00
00
00
00
00
00
00
00
00
41
00
02
02
8f
00
00
00
00
00
00
00
00
00
00
00
00
00
00
00
00
1a
e9
fe
e6
9d
02
de
00
00
00
00
00
00
00
00
00
00
01
01
00
00
00
00
00
00
00
00
00
d5
10
17
02
e5
b8
fd
00
00
00
00
00
00
00
fe
69
f6
1a
01
af
da
00
00
00
00
00
00
00
00
00
00
00
00
00
00
00
00
00
00
01
00
00
00
00
00
00
00
00
00
00
00
00
00
00
00
00
00
00
00
00
ff
00
00
00
00
00
00
00
00
00
00
00
00
00
02
00
00
be
f6
06
0b
73
00
fb
00
00
00
00
00
00
00
00
00
00
00
00
00
00
00
00
00
00
01
00
00
00
00
00
00
00
00
00
00
00
00
00
00
00
00
00
00
00
00
ff
00
00
0e
e1
0d
04
07
c5
10
00
00
00
00
00
00
00
00
00
00
00
fe
00
00
00
00
00
00
fe
00
00
f1
d7
39
12
18
76
30
00
00
00
00
ff
00
00
00
00
00
00
02
00
00
00
00
00
00
02
00
00
00
00
00
00
01
00
00
00
00
00
00
fe
00
00
00
00
00
00
ff
00
00
00
00
00
00
ff
00
00
00
00
00
00
fe
00
00
f3
20
f3
fa
f7
3e
ef
00
00
00
00
00
00
00
00
00
00
00
fe
00
00
00
00
00
00
ff
00
00
00
00
00
00
fe
00
00
01
c4
01
00
7b
00
ff
00
00
00
00
00
00
00
00
00
00
00
00
00
00
00
00
00
00
00
00
00
ee
20
f3
fd
10
3b
0c
00
00
00
00
00
00
00
00
00
00
00
ff
00
00
00
00
00
00
00
00
00
00
00
00
00
00
00
00
00
00
00
00
01
00
00
42
0a
fb
f5
8d
00
04
3c
00
ff
00
81
01
fe
00
00
00
00
00
00
00
00
00
00
00
01
00
00
00
00
00
00
02
00
00
00
00
00
00
00
00
00
00
00
00
00
00
00
00
00
4a
02
00
79
00
00
00
00
00
00
01
00
00
00
00
00
00
00
00
00
d5
14
14
01
00
b6
04
00
00
00
00
ff
00
00
00
00
00
00
fe
00
00
00
00
00
00
00
00
00
00
00
00
00
ff
00
00
00
00
00
00
00
00
00
00
00
00
00
00
00
00
00
00
00
00
00
00
00
fd
49
04
05
76
00
ff
00
00
00
00
fe
00
00
00
00
00
00
01
00
00
dc
f4
30
f3
0f
61
07
00
00
00
00
00
00
00
00
00
00
00
ff
00
00
12
e0
0d
04
ef
c5
f5
00
00
00
00
00
00
00
0f
08
e0
05
0c
3d
0c
00
00
00
00
ff
00
00
02
ff
4f
fe
78
00
ff
00
00
00
00
ff
00
00
00
00
00
00
fe
00
00
00
00
00
00
00
00
00
00
00
00
00
02
00
00
00
00
00
00
02
00
00
24
10
c9
eb
16
6b
de
3a
05
f8
f5
6a
02
fe
00
00
00
00
00
00
00
00
00
00
00
ff
00
00
00
00
00
00
00
00
00
00
00
00
00
ff
00
00
0d
0e
e2
fe
0b
37
06
00
02
43
ff
87
01
ff
b6
2f
18
c2
8e
5e
64
00
00
00
00
ff
00
00
00
00
00
00
ff
00
00
00
00
00
00
ff
00
00
00
00
00
00
00
00
00
00
00
00
00
ff
00
00
00
00
00
00
ff
00
00
d5
10
17
02
e5
b7
fd
e3
02
00
05
3c
fb
04
00
00
00
00
00
00
00
00
00
00
00
00
00
00
62
cd
d3
a0
bf
9b
7a
00
00
00
00
00
00
00
00
00
00
00
ff
00
00
